{
  "version": "1.0",
  "truncation": null,
  "padding": null,
  "added_tokens": [
    {
      "id": 1,
      "content": "[EOS]",
      "single_word": false,
      "lstrip": false,
      "rstrip": false,
      "normalized": false,
      "special": true
    }
  ],
  "normalizer": {
    "type": "Sequence",
    "normalizers": [
      {
        "type": "Lowercase"
      },
      {
        "type": "Replace",
        "pattern": {
          "String": "``"
        },
        "content": "\""
      },
      {
        "type": "Replace",
        "pattern": {
          "String": "''"
        },
        "content": "\""
      }
    ]
  },
  "pre_tokenizer": {
    "type": "Sequence",
    "pretokenizers": [
      {
        "type": "Whitespace"
      },
      {
        "type": "Punctuation",
        "behavior": "Isolated"
      },
      {
        "type": "Digits",
        "individual_digits": true
      }
    ]
  },
  "post_processor": {
    "type": "TemplateProcessing",
    "single": [
      {
        "Sequence": {
          "id": "A",
          "type_id": 0
        }
      },
      {
        "SpecialToken": {
          "id": "[EOS]",
          "type_id": 0
        }
      }
    ],
    "pair": [
      {
        "Sequence": {
          "id": "A",
          "type_id": 0
        }
      },
      {
        "Sequence": {
          "id": "B",
          "type_id": 1
        }
      }
    ],
    "special_tokens": {
      "[EOS]": {
        "id": "[EOS]",
        "ids": [
          1
        ],
        "tokens": [
          "[EOS]"
        ]
      }
    }
  },
  "decoder": {
    "type": "WordPiece",
    "prefix": "##",
    "cleanup": true
  },
  "model": {
    "type": "WordPiece",
    "unk_token": "[UNK]",
    "continuing_subword_prefix": "##",
    "max_input_chars_per_word": 100,
    "vocab": {
      "[UNK]": 0,
      "[EOS]": 1,
      "!": 2,
      "\"": 3,
      "#": 4,
      "$": 5,
      "%": 6,
      "&": 7,
      "'": 8,
      "(": 9,
      ")": 10,
      "*": 11,
      "+": 12,
      ",": 13,
      "-": 14,
      ".": 15,
      "/": 16,
      "0": 17,
      "1": 18,
      "2": 19,
      "3": 20,
      "4": 21,
      "5": 22,
      "6": 23,
      "7": 24,
      "8": 25,
      "9": 26,
      ":": 27,
      ";": 28,
      "=": 29,
      "?": 30,
      "@": 31,
      "a": 32,
      "b": 33,
      "c": 34,
      "d": 35,
      "e": 36,
      "f": 37,
      "g": 38,
      "h": 39,
      "i": 40,
      "j": 41,
      "k": 42,
      "l": 43,
      "m": 44,
      "n": 45,
      "o": 46,
      "p": 47,
      "q": 48,
      "r": 49,
      "s": 50,
      "t": 51,
      "u": 52,
      "v": 53,
      "w": 54,
      "x": 55,
      "y": 56,
      "z": 57,
      "##e": 58,
      "##y": 59,
      "##s": 60,
      "##u": 61,
      "##b": 62,
      "##t": 63,
      "##r": 64,
      "##a": 65,
      "##n": 66,
      "##p": 67,
      "##o": 68,
      "##h": 69,
      "##d": 70,
      "##l": 71,
      "##i": 72,
      "##c": 73,
      "##k": 74,
      "##g": 75,
      "##m": 76,
      "##v": 77,
      "##f": 78,
      "##w": 79,
      "##x": 80,
      "##z": 81,
      "##q": 82,
      "##j": 83,
      "##he": 84,
      "the": 85,
      "##ed": 86,
      "##er": 87,
      "##in": 88,
      "##nd": 89,
      "##ou": 90,
      "##ea": 91,
      "##ing": 92,
      "to": 93,
      "and": 94,
      "##or": 95,
      "wa": 96,
      "##el": 97,
      "##es": 98,
      "##it": 99,
      "##en": 100,
      "##is": 101,
      "##ar": 102,
      "he": 103,
      "##an": 104,
      "th": 105,
      "she": 106,
      "##at": 107,
      "in": 108,
      "##ll": 109,
      "##gh": 110,
      "they": 111,
      "##ow": 112,
      "##et": 113,
      "st": 114,
      "of": 115,
      "##on": 116,
      "her": 117,
      "##ir": 118,
      "##ld": 119,
      "it": 120,
      "##ght": 121,
      "##ut": 122,
      "##re": 123,
      "##id": 124,
      "##om": 125,
      "##st": 126,
      "was": 127,
      "##ad": 128,
      "wit": 129,
      "with": 130,
      "##ear": 131,
      "sh": 132,
      "##ac": 133,
      "##ri": 134,
      "##im": 135,
      "##le": 136,
      "##ay": 137,
      "##ot": 138,
      "on": 139,
      "as": 140,
      "but": 141,
      "sa": 142,
      "##rea": 143,
      "li": 144,
      "##ly": 145,
      "##ic": 146,
      "##oo": 147,
      "##her": 148,
      "that": 149,
      "##ver": 150,
      "be": 151,
      "##ked": 152,
      "fel": 153,
      "wh": 154,
      "##ur": 155,
      "his": 156,
      "felt": 157,
      "for": 158,
      "##ve": 159,
      "##ound": 160,
      "##ill": 161,
      "##ent": 162,
      "##ke": 163,
      "you": 164,
      "had": 165,
      "##ted": 166,
      "##hed": 167,
      "##ind": 168,
      "##all": 169,
      "##am": 170,
      "##em": 171,
      "sp": 172,
      "##ag": 173,
      "##pp": 174,
      "sm": 175,
      "##oy": 176,
      "their": 177,
      "##ec": 178,
      "hear": 179,
      "la": 180,
      "##ter": 181,
      "lo": 182,
      "##led": 183,
      "##end": 184,
      "pl": 185,
      "rea": 186,
      "ha": 187,
      "##un": 188,
      "##os": 189,
      "not": 190,
      "##al": 191,
      "wor": 192,
      "al": 193,
      "##ust": 194,
      "cl": 195,
      "said": 196,
      "##ure": 197,
      "fri": 198,
      "friend": 199,
      "him": 200,
      "an": 201,
      "##ep": 202,
      "heart": 203,
      "##ain": 204,
      "##ight": 205,
      "##ra": 206,
      "##one": 207,
      "one": 208,
      "##ch": 209,
      "day": 210,
      "##ned": 211,
      "##den": 212,
      "##ered": 213,
      "ch": 214,
      "##low": 215,
      "ne": 216,
      "so": 217,
      "could": 218,
      "##ide": 219,
      "##rou": 220,
      "##ark": 221,
      "at": 222,
      "lau": 223,
      "##op": 224,
      "loo": 225,
      "hel": 226,
      "whe": 227,
      "star": 228,
      "found": 229,
      "##get": 230,
      "fr": 231,
      "ab": 232,
      "kn": 233,
      "##est": 234,
      "##ce": 235,
      "##th": 236,
      "##ong": 237,
      "stor": 238,
      "ever": 239,
      "like": 240,
      "##ia": 241,
      "is": 242,
      "ex": 243,
      "##gether": 244,
      "together": 245,
      "##ig": 246,
      "them": 247,
      "fe": 248,
      "##ess": 249,
      "smi": 250,
      "what": 251,
      "shar": 252,
      "##irl": 253,
      "##ome": 254,
      "##ream": 255,
      "##out": 256,
      "##ers": 257,
      "##li": 258,
      "this": 259,
      "##ang": 260,
      "str": 261,
      "tr": 262,
      "we": 263,
      "##ach": 264,
      "##ood": 265,
      "every": 266,
      "friends": 267,
      "co": 268,
      "can": 269,
      "##ought": 270,
      "##ved": 271,
      "le": 272,
      "feel": 273,
      "##fu": 274,
      "girl": 275,
      "ar": 276,
      "dream": 277,
      "se": 278,
      "ro": 279,
      "do": 280,
      "##ies": 281,
      "each": 282,
      "##ack": 283,
      "##to": 284,
      "##ore": 285,
      "##as": 286,
      "bri": 287,
      "##king": 288,
      "bright": 289,
      "thought": 290,
      "fill": 291,
      "##ere": 292,
      "wan": 293,
      "were": 294,
      "up": 295,
      "##us": 296,
      "joy": 297,
      "about": 298,
      "just": 299,
      "would": 300,
      "from": 301,
      "help": 302,
      "##ace": 303,
      "ma": 304,
      "into": 305,
      "##ched": 306,
      "boy": 307,
      "mia": 308,
      "##nder": 309,
      "##reat": 310,
      "##ft": 311,
      "light": 312,
      "##uel": 313,
      "back": 314,
      "##way": 315,
      "filled": 316,
      "leo": 317,
      "ca": 318,
      "##ame": 319,
      "find": 320,
      "tre": 321,
      "su": 322,
      "##ful": 323,
      "out": 324,
      "##ther": 325,
      "looked": 326,
      "##lor": 327,
      "too": 328,
      "##side": 329,
      "##ade": 330,
      "##ion": 331,
      "pr": 332,
      "##ard": 333,
      "when": 334,
      "ey": 335,
      "##ck": 336,
      "##ice": 337,
      "trea": 338,
      "treas": 339,
      "##eep": 340,
      "sk": 341,
      "old": 342,
      "wis": 343,
      "feeling": 344,
      "gr": 345,
      "small": 346,
      "dan": 347,
      "eyes": 348,
      "ag": 349,
      "all": 350,
      "tim": 351,
      "happ": 352,
      "other": 353,
      "saw": 354,
      "smiled": 355,
      "##il": 356,
      "no": 357,
      "rem": 358,
      "flow": 359,
      "br": 360,
      "lea": 361,
      "##rough": 362,
      "beg": 363,
      "through": 364,
      "sun": 365,
      "mag": 366,
      "asked": 367,
      "magic": 368,
      "made": 369,
      "tur": 370,
      "##lex": 371,
      "alex": 372,
      "##amed": 373,
      "ad": 374,
      "##pped": 375,
      "##hing": 376,
      "##ous": 377,
      "around": 378,
      "if": 379,
      "##own": 380,
      "lost": 381,
      "world": 382,
      "man": 383,
      "let": 384,
      "named": 385,
      "wanted": 386,
      "##zed": 387,
      "play": 388,
      "##omet": 389,
      "##ant": 390,
      "##our": 391,
      "##ose": 392,
      "treasure": 393,
      "under": 394,
      "sam": 395,
      "exc": 396,
      "##ange": 397,
      "time": 398,
      "go": 399,
      "ta": 400,
      "fl": 401,
      "##wn": 402,
      "somet": 403,
      "stars": 404,
      "##ist": 405,
      "night": 406,
      "began": 407,
      "sky": 408,
      "##ds": 409,
      "by": 410,
      "bea": 411,
      "reali": 412,
      "kim": 413,
      "##ened": 414,
      "hop": 415,
      "stories": 416,
      "big": 417,
      "##ip": 418,
      "##ull": 419,
      "dec": 420,
      "dark": 421,
      "sw": 422,
      "##ew": 423,
      "inside": 424,
      "who": 425,
      "dreams": 426,
      "samuel": 427,
      "##age": 428,
      "##vent": 429,
      "##ven": 430,
      "creat": 431,
      "its": 432,
      "war": 433,
      "##dden": 434,
      "sudden": 435,
      "see": 436,
      "##ean": 437,
      "color": 438,
      "will": 439,
      "learned": 440,
      "my": 441,
      "##ity": 442,
      "suddenly": 443,
      "##um": 444,
      "danc": 445,
      "love": 446,
      "know": 447,
      "##ling": 448,
      "##ue": 449,
      "laughter": 450,
      "deep": 451,
      "##tle": 452,
      "##ond": 453,
      "shared": 454,
      "fo": 455,
      "new": 456,
      "mom": 457,
      "che": 458,
      "air": 459,
      "##sed": 460,
      "excit": 461,
      "am": 462,
      "##ided": 463,
      "gi": 464,
      "##ild": 465,
      "realized": 466,
      "wal": 467,
      "cr": 468,
      "again": 469,
      "more": 470,
      "than": 471,
      "##isp": 472,
      "##ghed": 473,
      "laughed": 474,
      "how": 475,
      "me": 476,
      "pe": 477,
      "spark": 478,
      "un": 479,
      "##se": 480,
      "whisp": 481,
      "##emb": 482,
      "wat": 483,
      "mo": 484,
      "moment": 485,
      "con": 486,
      "##ness": 487,
      "then": 488,
      "warm": 489,
      "are": 490,
      "decided": 491,
      "##ick": 492,
      "something": 493,
      "exp": 494,
      "##ures": 495,
      "em": 496,
      "qu": 497,
      "##ves": 498,
      "even": 499,
      "##elf": 500,
      "car": 501,
      "rememb": 502,
      "sc": 503,
      "hid": 504,
      "soft": 505,
      "op": 506,
      "en": 507,
      "bl": 508,
      "shad": 509,
      "##ting": 510,
      "where": 511,
      "shin": 512,
      "##ey": 513,
      "fa": 514,
      "there": 515,
      "##fe": 516,
      "##ather": 517,
      "shadow": 518,
      "knew": 519,
      "took": 520,
      "bel": 521,
      "##ook": 522,
      "fun": 523,
      "tree": 524,
      "danced": 525,
      "down": 526,
      "home": 527,
      "clos": 528,
      "did": 529,
      "##ings": 530,
      "gar": 531,
      "af": 532,
      "hope": 533,
      "lit": 534,
      "now": 535,
      "people": 536,
      "bra": 537,
      "away": 538,
      "garden": 539,
      "over": 540,
      "flowers": 541,
      "walked": 542,
      "##oke": 543,
      "read": 544,
      "bu": 545,
      "glow": 546,
      "sad": 547,
      "sur": 548,
      "fear": 549,
      "everyone": 550,
      "##rew": 551,
      "wind": 552,
      "##and": 553,
      "##ge": 554,
      "plan": 555,
      "show": 556,
      "hand": 557,
      "##self": 558,
      "strange": 559,
      "##ried": 560,
      "##oin": 561,
      "vill": 562,
      "turned": 563,
      "##other": 564,
      "way": 565,
      "##ning": 566,
      "##aced": 567,
      "rit": 568,
      "tw": 569,
      "rita": 570,
      "water": 571,
      "sat": 572,
      "##ink": 573,
      "sec": 574,
      "fin": 575,
      "##ret": 576,
      "hidden": 577,
      "stood": 578,
      "vo": 579,
      "sn": 580,
      "hea": 581,
      "app": 582,
      "have": 583,
      "##ie": 584,
      "bo": 585,
      "##ared": 586,
      "lily": 587,
      "bec": 588,
      "cu": 589,
      "secret": 590,
      "adventure": 591,
      "map": 592,
      "pa": 593,
      "after": 594,
      "##ving": 595,
      "pain": 596,
      "ret": 597,
      "full": 598,
      "happy": 599,
      "gra": 600,
      "##outed": 601,
      "shouted": 602,
      "##ped": 603,
      "place": 604,
      "ali": 605,
      "tal": 606,
      "strong": 607,
      "wr": 608,
      "loved": 609,
      "##ell": 610,
      "little": 611,
      "##hip": 612,
      "brea": 613,
      "brave": 614,
      "colors": 615,
      "came": 616,
      "knowing": 617,
      "##ways": 618,
      "##bb": 619,
      "curi": 620,
      "##ect": 621,
      "always": 622,
      "dr": 623,
      "land": 624,
      "##ate": 625,
      "need": 626,
      "fir": 627,
      "mar": 628,
      "told": 629,
      "story": 630,
      "##br": 631,
      "forest": 632,
      "re": 633,
      "trees": 634,
      "others": 635,
      "im": 636,
      "make": 637,
      "set": 638,
      "voice": 639,
      "kind": 640,
      "##les": 641,
      "##ish": 642,
      "life": 643,
      "##ile": 644,
      "your": 645,
      "long": 646,
      "gather": 647,
      "##ded": 648,
      "ho": 649,
      "##ching": 650,
      "##ff": 651,
      "##art": 652,
      "own": 653,
      "##ely": 654,
      "shadows": 655,
      "share": 656,
      "whispered": 657,
      "city": 658,
      "bir": 659,
      "alone": 660,
      "watched": 661,
      "reached": 662,
      "hard": 663,
      "##ise": 664,
      "##ence": 665,
      "door": 666,
      "##co": 667,
      "##ree": 668,
      "##ally": 669,
      "##ised": 670,
      "beauti": 671,
      "list": 672,
      "ac": 673,
      "bot": 674,
      "##ble": 675,
      "beautiful": 676,
      "pat": 677,
      "held": 678,
      "child": 679,
      "opened": 680,
      "dis": 681,
      "soon": 682,
      "##eter": 683,
      "underst": 684,
      "some": 685,
      "##lew": 686,
      "laugh": 687,
      "##ite": 688,
      "come": 689,
      "##llow": 690,
      "##man": 691,
      "##iver": 692,
      "alice": 693,
      "rock": 694,
      "rep": 695,
      "stone": 696,
      "tea": 697,
      "di": 698,
      "##pt": 699,
      "##pr": 700,
      "while": 701,
      "cave": 702,
      "tall": 703,
      "ste": 704,
      "friendship": 705,
      "pow": 706,
      "maria": 707,
      "mem": 708,
      "must": 709,
      "memor": 710,
      "##hes": 711,
      "village": 712,
      "##ily": 713,
      "want": 714,
      "remembered": 715,
      "com": 716,
      "follow": 717,
      "call": 718,
      "true": 719,
      "bet": 720,
      "jose": 721,
      "pic": 722,
      "heard": 723,
      "ready": 724,
      "ran": 725,
      "prom": 726,
      "excited": 727,
      "##ated": 728,
      "or": 729,
      "join": 730,
      "##iet": 731,
      "many": 732,
      "any": 733,
      "off": 734,
      "##iced": 735,
      "smile": 736,
      "jean": 737,
      "power": 738,
      "##vered": 739,
      "sharing": 740,
      "##ement": 741,
      "##ry": 742,
      "gold": 743,
      "great": 744,
      "len": 745,
      "breath": 746,
      "look": 747,
      "sear": 748,
      "room": 749,
      "nod": 750,
      "snow": 751,
      "lena": 752,
      "giant": 753,
      "path": 754,
      "book": 755,
      "##gg": 756,
      "curious": 757,
      "only": 758,
      "grew": 759,
      "finally": 760,
      "gu": 761,
      "once": 762,
      "storm": 763,
      "##ove": 764,
      "##ation": 765,
      "both": 766,
      "fly": 767,
      "letter": 768,
      "fam": 769,
      "part": 770,
      "played": 771,
      "##ial": 772,
      "stepped": 773,
      "tra": 774,
      "nodded": 775,
      "sea": 776,
      "never": 777,
      "cheered": 778,
      "became": 779,
      "##roud": 780,
      "##ead": 781,
      "lead": 782,
      "##ward": 783,
      "rain": 784,
      "proud": 785,
      "##igh": 786,
      "spoke": 787,
      "end": 788,
      "excitement": 789,
      "##ng": 790,
      "##oun": 791,
      "gl": 792,
      "seem": 793,
      "repli": 794,
      "spec": 795,
      "wo": 796,
      "young": 797,
      "special": 798,
      "best": 799,
      "days": 800,
      "noticed": 801,
      "##ten": 802,
      "words": 803,
      "wond": 804,
      "fish": 805,
      "emmanuel": 806,
      "##imb": 807,
      "gathered": 808,
      "pull": 809,
      "belie": 810,
      "town": 811,
      "climb": 812,
      "replied": 813,
      "quiet": 814,
      "##oman": 815,
      "grow": 816,
      "cour": 817,
      "face": 818,
      "woman": 819,
      "clouds": 820,
      "##imm": 821,
      "wait": 822,
      "sound": 823,
      "beh": 824,
      "behind": 825,
      "us": 826,
      "warmth": 827,
      "flew": 828,
      "##iness": 829,
      "expl": 830,
      "##eared": 831,
      "fi": 832,
      "##xt": 833,
      "wish": 834,
      "##thing": 835,
      "past": 836,
      "returned": 837,
      "softly": 838,
      "ground": 839,
      "##ering": 840,
      "heav": 841,
      "next": 842,
      "closer": 843,
      "may": 844,
      "still": 845,
      "##cho": 846,
      "step": 847,
      "disco": 848,
      "##aces": 849,
      "inst": 850,
      "##ny": 851,
      "bird": 852,
      "care": 853,
      "bring": 854,
      "river": 855,
      "gent": 856,
      "take": 857,
      "sparkled": 858,
      "echo": 859,
      "seemed": 860,
      "bef": 861,
      "##oss": 862,
      "##iny": 863,
      "##oud": 864,
      "##ool": 865,
      "hearts": 866,
      "before": 867,
      "##ance": 868,
      "tiny": 869,
      "ship": 870,
      "keep": 871,
      "near": 872,
      "##oom": 873,
      "imag": 874,
      "rob": 875,
      "met": 876,
      "change": 877,
      "flower": 878,
      "##ush": 879,
      "above": 880,
      "##ined": 881,
      "looking": 882,
      "explor": 883,
      "##ap": 884,
      "ann": 885,
      "drag": 886,
      "journ": 887,
      "##reed": 888,
      "being": 889,
      "##ever": 890,
      "##ushed": 891,
      "memories": 892,
      "dragon": 893,
      "family": 894,
      "robot": 895,
      "cat": 896,
      "flo": 897,
      "here": 898,
      "heavy": 899,
      "fell": 900,
      "##lly": 901,
      "##zing": 902,
      "called": 903,
      "listened": 904,
      "jum": 905,
      "slow": 906,
      "why": 907,
      "first": 908,
      "##iv": 909,
      "journey": 910,
      "raced": 911,
      "worked": 912,
      "real": 913,
      "mind": 914,
      "work": 915,
      "##so": 916,
      "spir": 917,
      "##ffer": 918,
      "courage": 919,
      "##als": 920,
      "wonder": 921,
      "sil": 922,
      "##eng": 923,
      "king": 924,
      "also": 925,
      "spirit": 926,
      "differ": 927,
      "inv": 928,
      "wise": 929,
      "hold": 930,
      "secrets": 931,
      "promised": 932,
      "outside": 933,
      "magical": 934,
      "##ort": 935,
      "##irr": 936,
      "##be": 937,
      "good": 938,
      "loud": 939,
      "appeared": 940,
      "box": 941,
      "alive": 942,
      "instead": 943,
      "id": 944,
      "remind": 945,
      "trust": 946,
      "idea": 947,
      "himself": 948,
      "things": 949,
      "brought": 950,
      "try": 951,
      "##ro": 952,
      "happiness": 953,
      "dance": 954,
      "##ine": 955,
      "anne": 956,
      "##inking": 957,
      "ra": 958,
      "glowing": 959,
      "kindness": 960,
      "herself": 961,
      "mis": 962,
      "shiny": 963,
      "peter": 964,
      "laughing": 965,
      "##tain": 966,
      "high": 967,
      "yet": 968,
      "spot": 969,
      "passed": 970,
      "##ss": 971,
      "##eet": 972,
      "colorful": 973,
      "cast": 974,
      "slowly": 975,
      "fair": 976,
      "maybe": 977,
      "left": 978,
      "hands": 979,
      "showed": 980,
      "wondered": 981,
      "##ze": 982,
      "creature": 983,
      "open": 984,
      "our": 985,
      "free": 986,
      "started": 987,
      "##land": 988,
      "thinking": 989,
      "##ster": 990,
      "shining": 991,
      "key": 992,
      "tri": 993,
      "##ouse": 994,
      "moon": 995,
      "##ks": 996,
      "wall": 997,
      "##la": 998,
      "scared": 999,
      "alien": 1000,
      "tell": 1001,
      "adventures": 1002,
      "game": 1003,
      "##ired": 1004,
      "last": 1005,
      "din": 1006,
      "##uth": 1007,
      "understood": 1008,
      "team": 1009,
      "wide": 1010,
      "sweet": 1011,
      "##vel": 1012,
      "##ud": 1013,
      "far": 1014,
      "win": 1015,
      "##dom": 1016,
      "##roup": 1017,
      "group": 1018,
      "truth": 1019,
      "##by": 1020,
      "picked": 1021,
      "different": 1022,
      "quick": 1023,
      "climbed": 1024,
      "fad": 1025,
      "##aur": 1026,
      "##uck": 1027,
      "##ote": 1028,
      "lived": 1029,
      "##osaur": 1030,
      "making": 1031,
      "ben": 1032,
      "island": 1033,
      "think": 1034,
      "##ears": 1035,
      "wrote": 1036,
      "fig": 1037,
      "park": 1038,
      "hero": 1039,
      "ow": 1040,
      "grand": 1041,
      "##ebr": 1042,
      "##imes": 1043,
      "##acing": 1044,
      "ball": 1045,
      "ama": 1046,
      "sometimes": 1047,
      "owl": 1048,
      "weight": 1049,
      "pi": 1050,
      "hill": 1051,
      "conn": 1052,
      "followed": 1053,
      "mus": 1054,
      "tou": 1055,
      "cel": 1056,
      "waves": 1057,
      "##ren": 1058,
      "song": 1059,
      "celebr": 1060,
      "tales": 1061,
      "art": 1062,
      "discovered": 1063,
      "mean": 1064,
      "cont": 1065,
      "##qu": 1066,
      "remember": 1067,
      "dinosaur": 1068,
      "oc": 1069,
      "run": 1070,
      "leaves": 1071,
      "strength": 1072,
      "explore": 1073,
      "went": 1074,
      "kid": 1075,
      "##imed": 1076,
      "##ost": 1077,
      "##kes": 1078,
      "everything": 1079,
      "creatures": 1080,
      "children": 1081,
      "##med": 1082,
      "should": 1083,
      "build": 1084,
      "jumped": 1085,
      "##ock": 1086,
      "dra": 1087,
      "bloom": 1088,
      "cold": 1089,
      "##sp": 1090,
      "##ken": 1091,
      "##tered": 1092,
      "##light": 1093,
      "##day": 1094,
      "wood": 1095,
      "better": 1096,
      "been": 1097,
      "led": 1098,
      "figure": 1099,
      "##umb": 1100,
      "beauty": 1101,
      "##bbit": 1102,
      "##ited": 1103,
      "cry": 1104,
      "##ugg": 1105,
      "music": 1106,
      "rabbit": 1107,
      "pir": 1108,
      "waiting": 1109,
      "##ught": 1110,
      "those": 1111,
      "anim": 1112,
      "##ass": 1113,
      "turtle": 1114,
      "ear": 1115,
      "dust": 1116,
      "##fully": 1117,
      "shimm": 1118,
      "brighter": 1119,
      "##ept": 1120,
      "sang": 1121,
      "mountain": 1122,
      "##igg": 1123,
      "##ets": 1124,
      "kids": 1125,
      "##ol": 1126,
      "##orn": 1127,
      "twink": 1128,
      "wished": 1129,
      "##ons": 1130,
      "among": 1131,
      "cra": 1132,
      "closed": 1133,
      "moved": 1134,
      "crea": 1135,
      "food": 1136,
      "create": 1137,
      "often": 1138,
      "toy": 1139,
      "##ished": 1140,
      "say": 1141,
      "stay": 1142,
      "fox": 1143,
      "surprise": 1144,
      "travel": 1145,
      "flying": 1146,
      "##ilt": 1147,
      "chest": 1148,
      "echoed": 1149,
      "deeper": 1150,
      "without": 1151,
      "vis": 1152,
      "sadness": 1153,
      "appro": 1154,
      "needed": 1155,
      "dist": 1156,
      "animals": 1157,
      "ga": 1158,
      "helped": 1159,
      "##laimed": 1160,
      "understand": 1161,
      "shone": 1162,
      "space": 1163,
      "empt": 1164,
      "##ival": 1165,
      "gas": 1166,
      "lay": 1167,
      "exclaimed": 1168,
      "##eath": 1169,
      "dreamed": 1170,
      "##opped": 1171,
      "yes": 1172,
      "##illy": 1173,
      "bond": 1174,
      "forg": 1175,
      "##ank": 1176,
      "plant": 1177,
      "wand": 1178,
      "thank": 1179,
      "lights": 1180,
      "another": 1181,
      "faded": 1182,
      "##ions": 1183,
      "playing": 1184,
      "##rived": 1185,
      "castle": 1186,
      "##we": 1187,
      "agreed": 1188,
      "today": 1189,
      "per": 1190,
      "sing": 1191,
      "sit": 1192,
      "return": 1193,
      "##ough": 1194,
      "lon": 1195,
      "toward": 1196,
      "funny": 1197,
      "##ross": 1198,
      "across": 1199,
      "ocean": 1200,
      "##mb": 1201,
      "swam": 1202,
      "woods": 1203,
      "##ung": 1204,
      "##idd": 1205,
      "sand": 1206,
      "quickly": 1207,
      "sig": 1208,
      "darkness": 1209,
      "##ached": 1210,
      "watching": 1211,
      "landed": 1212,
      "fall": 1213,
      "cho": 1214,
      "glowed": 1215,
      "##ained": 1216,
      "mat": 1217,
      "close": 1218,
      "treasures": 1219,
      "forever": 1220,
      "stronger": 1221,
      "mother": 1222,
      "fairy": 1223,
      "des": 1224,
      "squ": 1225,
      "approached": 1226,
      "beneath": 1227,
      "##read": 1228,
      "##ones": 1229,
      "floated": 1230,
      "gasped": 1231,
      "piec": 1232,
      "##ix": 1233,
      "##ary": 1234,
      "##here": 1235,
      "tight": 1236,
      "flick": 1237,
      "blue": 1238,
      "##ames": 1239,
      "someone": 1240,
      "searched": 1241,
      "brightly": 1242,
      "boat": 1243,
      "father": 1244,
      "walls": 1245,
      "silly": 1246,
      "changed": 1247,
      "##row": 1248,
      "connect": 1249,
      "##round": 1250,
      "turn": 1251,
      "spotted": 1252,
      "res": 1253,
      "##ins": 1254,
      "##per": 1255,
      "racing": 1256,
      "gentle": 1257,
      "##ash": 1258,
      "lu": 1259,
      "##sw": 1260,
      "##cked": 1261,
      "luis": 1262,
      "helping": 1263,
      "##umbled": 1264,
      "tried": 1265,
      "##ible": 1266,
      "seen": 1267,
      "hon": 1268,
      "sen": 1269,
      "cryst": 1270,
      "within": 1271,
      "mix": 1272,
      "sparkling": 1273,
      "insp": 1274,
      "forward": 1275,
      "##ected": 1276,
      "##ued": 1277,
      "##sing": 1278,
      "empty": 1279,
      "hoping": 1280,
      "deter": 1281,
      "eager": 1282,
      "determ": 1283,
      "forgot": 1284,
      "pu": 1285,
      "stones": 1286,
      "trying": 1287,
      "gently": 1288,
      "crow": 1289,
      "shell": 1290,
      "gigg": 1291,
      "less": 1292,
      "painted": 1293,
      "whispers": 1294,
      "built": 1295,
      "fea": 1296,
      "##fted": 1297,
      "##elled": 1298,
      "kingdom": 1299,
      "right": 1300,
      "villagers": 1301,
      "imagined": 1302,
      "sch": 1303,
      "wandered": 1304,
      "fast": 1305,
      "mirr": 1306,
      "mirror": 1307,
      "rev": 1308,
      "##ci": 1309,
      "upon": 1310,
      "dog": 1311,
      "mor": 1312,
      "along": 1313,
      "joined": 1314,
      "side": 1315,
      "waved": 1316,
      "arrived": 1317,
      "fire": 1318,
      "lonely": 1319,
      "house": 1320,
      "pulled": 1321,
      "##where": 1322,
      "ru": 1323,
      "##ger": 1324,
      "searching": 1325,
      "faced": 1326,
      "stre": 1327,
      "hur": 1328,
      "##ery": 1329,
      "school": 1330,
      "cand": 1331,
      "##ater": 1332,
      "leave": 1333,
      "##for": 1334,
      "##sion": 1335,
      "##ug": 1336,
      "against": 1337,
      "leaving": 1338,
      "window": 1339,
      "##omed": 1340,
      "fest": 1341,
      "##erg": 1342,
      "##pping": 1343,
      "wee": 1344,
      "gift": 1345,
      "##osity": 1346,
      "butter": 1347,
      "trick": 1348,
      "bree": 1349,
      "two": 1350,
      "might": 1351,
      "##oon": 1352,
      "morning": 1353,
      "safe": 1354,
      "cried": 1355,
      "grass": 1356,
      "covered": 1357,
      "get": 1358,
      "##act": 1359,
      "butterf": 1360,
      "below": 1361,
      "leader": 1362,
      "##iddle": 1363,
      "##eak": 1364,
      "race": 1365,
      "festival": 1366,
      "painting": 1367,
      "shap": 1368,
      "comp": 1369,
      "bus": 1370,
      "listen": 1371,
      "##og": 1372,
      "evening": 1373,
      "wave": 1374,
      "games": 1375,
      "cloud": 1376,
      "stopped": 1377,
      "crew": 1378,
      "thick": 1379,
      "realizing": 1380,
      "belong": 1381,
      "imp": 1382,
      "draw": 1383,
      "fears": 1384,
      "give": 1385,
      "pushed": 1386,
      "mu": 1387,
      "head": 1388,
      "##ms": 1389,
      "sha": 1390,
      "##anc": 1391,
      "knight": 1392,
      "clear": 1393,
      "gh": 1394,
      "ghost": 1395,
      "got": 1396,
      "shook": 1397,
      "crowd": 1398,
      "believe": 1399,
      "ed": 1400,
      "wings": 1401,
      "nearby": 1402,
      "##lled": 1403,
      "##ans": 1404,
      "rushed": 1405,
      "breeze": 1406,
      "##ts": 1407,
      "##joy": 1408,
      "learn": 1409,
      "seed": 1410,
      "##reen": 1411,
      "letters": 1412,
      "much": 1413,
      "created": 1414,
      "gone": 1415,
      "chas": 1416,
      "crystal": 1417,
      "brother": 1418,
      "fight": 1419,
      "wel": 1420,
      "dancing": 1421,
      "smiling": 1422,
      "welc": 1423,
      "piece": 1424,
      "believed": 1425,
      "att": 1426,
      "##els": 1427,
      "kept": 1428,
      "rush": 1429,
      "pro": 1430,
      "##ious": 1431,
      "##are": 1432,
      "##ination": 1433,
      "stumbled": 1434,
      "hour": 1435,
      "golden": 1436,
      "silence": 1437,
      "meet": 1438,
      "edge": 1439,
      "sunny": 1440,
      "used": 1441,
      "surprised": 1442,
      "enjoy": 1443,
      "worried": 1444,
      "twinkled": 1445,
      "##lies": 1446,
      "sense": 1447,
      "shine": 1448,
      "spl": 1449,
      "wishes": 1450,
      "note": 1451,
      "##ices": 1452,
      "curiosity": 1453,
      "##ating": 1454,
      "confu": 1455,
      "pea": 1456,
      "dreaming": 1457,
      "##oken": 1458,
      "spread": 1459,
      "##ast": 1460,
      "##ates": 1461,
      "holding": 1462,
      "##ib": 1463,
      "##essed": 1464,
      "don": 1465,
      "seek": 1466,
      "##ines": 1467,
      "talked": 1468,
      "##ester": 1469,
      "birds": 1470,
      "jester": 1471,
      "dusty": 1472,
      "##anger": 1473,
      "sy": 1474,
      "carefully": 1475,
      "da": 1476,
      "thri": 1477,
      "cool": 1478,
      "sounds": 1479,
      "honest": 1480,
      "connection": 1481,
      "faces": 1482,
      "these": 1483,
      "pirate": 1484,
      "act": 1485,
      "rec": 1486,
      "##used": 1487,
      "thanked": 1488,
      "moments": 1489,
      "very": 1490,
      "sitting": 1491,
      "shore": 1492,
      "peace": 1493,
      "##use": 1494,
      "sor": 1495,
      "##bbed": 1496,
      "flash": 1497,
      "guard": 1498,
      "wrong": 1499,
      "mon": 1500,
      "thoughts": 1501,
      "smiles": 1502,
      "bur": 1503,
      "amazing": 1504,
      "contin": 1505,
      "anything": 1506,
      "top": 1507,
      "corn": 1508,
      "surround": 1509,
      "##iled": 1510,
      "spent": 1511,
      "bes": 1512,
      "beside": 1513,
      "grin": 1514,
      "caught": 1515,
      "fut": 1516,
      "earth": 1517,
      "tale": 1518,
      "inspired": 1519,
      "red": 1520,
      "ideas": 1521,
      "later": 1522,
      "##ested": 1523,
      "cal": 1524,
      "stand": 1525,
      "candy": 1526,
      "grandmother": 1527,
      "memory": 1528,
      "finding": 1529,
      "closely": 1530,
      "##vous": 1531,
      "quest": 1532,
      "places": 1533,
      "mist": 1534,
      "##sh": 1535,
      "pond": 1536,
      "cre": 1537,
      "future": 1538,
      "##ister": 1539,
      "##very": 1540,
      "pict": 1541,
      "wild": 1542,
      "sho": 1543,
      "beach": 1544,
      "##bow": 1545,
      "ner": 1546,
      "capt": 1547,
      "sister": 1548,
      "rainbow": 1549,
      "gem": 1550,
      "##ork": 1551,
      "prin": 1552,
      "important": 1553,
      "rocks": 1554,
      "tears": 1555,
      "year": 1556,
      "everywhere": 1557,
      "cla": 1558,
      "grabbed": 1559,
      "between": 1560,
      "vi": 1561,
      "bear": 1562,
      "planet": 1563,
      "has": 1564,
      "filling": 1565,
      "##ents": 1566,
      "##zz": 1567,
      "hours": 1568,
      "##ls": 1569,
      "##ple": 1570,
      "##lf": 1571,
      "dou": 1572,
      "riddle": 1573,
      "##irled": 1574,
      "sugg": 1575,
      "longer": 1576,
      "songs": 1577,
      "doub": 1578,
      "nervous": 1579,
      "de": 1580,
      "rolled": 1581,
      "ancient": 1582,
      "creating": 1583,
      "hung": 1584,
      "##ugged": 1585,
      "##ashed": 1586,
      "symbol": 1587,
      "trans": 1588,
      "spr": 1589,
      "broken": 1590,
      "##ak": 1591,
      "quietly": 1592,
      "##head": 1593,
      "dri": 1594,
      "years": 1595,
      "clock": 1596,
      "didn": 1597,
      "paint": 1598,
      "invis": 1599,
      "##work": 1600,
      "ago": 1601,
      "green": 1602,
      "determined": 1603,
      "carry": 1604,
      "suggested": 1605,
      "confused": 1606,
      "##anted": 1607,
      "unt": 1608,
      "amazed": 1609,
      "touched": 1610,
      "sli": 1611,
      "gave": 1612,
      "cle": 1613,
      "clever": 1614,
      "##ich": 1615,
      "understanding": 1616,
      "reach": 1617,
      "pre": 1618,
      "##alley": 1619,
      "valley": 1620,
      "pointed": 1621,
      "kite": 1622,
      "##vor": 1623,
      "tightly": 1624,
      "feels": 1625,
      "stop": 1626,
      "hat": 1627,
      "lighter": 1628,
      "weeks": 1629,
      "##acked": 1630,
      "##elling": 1631,
      "yelled": 1632,
      "bloomed": 1633,
      "brid": 1634,
      "surrounded": 1635,
      "feather": 1636,
      "party": 1637,
      "dear": 1638,
      "cook": 1639,
      "running": 1640,
      "corner": 1641,
      "happen": 1642,
      "bit": 1643,
      "##irt": 1644,
      "calm": 1645,
      "##uit": 1646,
      "name": 1647,
      "toys": 1648,
      "forgotten": 1649,
      "entered": 1650,
      "##raid": 1651,
      "explored": 1652,
      "comes": 1653,
      "loss": 1654,
      "continued": 1655,
      "matter": 1656,
      "afraid": 1657,
      "use": 1658,
      "move": 1659,
      "invited": 1660,
      "write": 1661,
      "##iding": 1662,
      "soared": 1663,
      "shimmered": 1664,
      "watch": 1665,
      "chance": 1666,
      "blew": 1667,
      "ref": 1668,
      "danger": 1669,
      "resp": 1670,
      "##lec": 1671,
      "##fect": 1672,
      "visit": 1673,
      "taking": 1674,
      "fade": 1675,
      "embr": 1676,
      "hig": 1677,
      "same": 1678,
      "noise": 1679,
      "thrill": 1680,
      "shimmering": 1681,
      "distance": 1682,
      "ahead": 1683,
      "known": 1684,
      "teamwork": 1685,
      "bubb": 1686,
      "explained": 1687,
      "explorer": 1688,
      "myster": 1689,
      "finished": 1690,
      "energ": 1691,
      "hurt": 1692,
      "pers": 1693,
      "friendly": 1694,
      "energy": 1695,
      "until": 1696,
      "really": 1697,
      "fix": 1698,
      "lives": 1699,
      "##irc": 1700,
      "bridge": 1701,
      "##ause": 1702,
      "because": 1703,
      "fruit": 1704,
      "prot": 1705,
      "frog": 1706,
      "mountains": 1707,
      "##ray": 1708,
      "reminder": 1709,
      "going": 1710,
      "rust": 1711,
      "taught": 1712,
      "invisible": 1713,
      "sol": 1714,
      "##ief": 1715,
      "perfect": 1716,
      "revealing": 1717,
      "hes": 1718,
      "hesit": 1719,
      "trapped": 1720,
      "missed": 1721,
      "tow": 1722,
      "##sc": 1723,
      "times": 1724,
      "##ron": 1725,
      "stared": 1726,
      "cha": 1727,
      "wra": 1728,
      "planned": 1729,
      "butterfly": 1730,
      "mess": 1731,
      "que": 1732,
      "queen": 1733,
      "field": 1734,
      "streets": 1735,
      "catch": 1736,
      "kit": 1737,
      "##ots": 1738,
      "favor": 1739,
      "reflec": 1740,
      "wisdom": 1741,
      "lake": 1742,
      "showing": 1743,
      "chill": 1744,
      "choice": 1745,
      "betray": 1746,
      "seeds": 1747,
      "sign": 1748,
      "talk": 1749,
      "wonders": 1750,
      "##eal": 1751,
      "pirates": 1752,
      "forget": 1753,
      "nothing": 1754,
      "##tern": 1755,
      "##dy": 1756,
      "squirrel": 1757,
      "woke": 1758,
      "swirl": 1759,
      "favorite": 1760,
      "tired": 1761,
      "circ": 1762,
      "goodbye": 1763,
      "shi": 1764,
      "mark": 1765,
      "par": 1766,
      "##vely": 1767,
      "onto": 1768,
      "sighed": 1769,
      "attic": 1770,
      "jo": 1771,
      "ench": 1772,
      "low": 1773,
      "put": 1774,
      "jewels": 1775,
      "blank": 1776,
      "exploring": 1777,
      "giggled": 1778,
      "reminded": 1779,
      "lift": 1780,
      "wore": 1781,
      "grateful": 1782,
      "lesson": 1783,
      "jump": 1784,
      "promise": 1785,
      "conf": 1786,
      "higher": 1787,
      "mach": 1788,
      "working": 1789,
      "plants": 1790,
      "well": 1791,
      "fier": 1792,
      "pres": 1793,
      "##ph": 1794,
      "broke": 1795,
      "spaces": 1796,
      "lar": 1797,
      "sunlight": 1798,
      "transformed": 1799,
      "enough": 1800,
      "bat": 1801,
      "sim": 1802,
      "stud": 1803,
      "feet": 1804,
      "##iting": 1805,
      "libr": 1806,
      "busy": 1807,
      "adm": 1808,
      "rose": 1809,
      "##isted": 1810,
      "touch": 1811,
      "cann": 1812,
      "bravery": 1813,
      "placed": 1814,
      "person": 1815,
      "meant": 1816,
      "most": 1817,
      "##app": 1818,
      "##lo": 1819,
      "decl": 1820,
      "enchanted": 1821,
      "pur": 1822,
      "ok": 1823,
      "okay": 1824,
      "##cher": 1825,
      "##ries": 1826,
      "cannot": 1827,
      "oh": 1828,
      "bas": 1829,
      "glimm": 1830,
      "start": 1831,
      "prep": 1832,
      "telling": 1833,
      "doubt": 1834,
      "##ged": 1835,
      "save": 1836,
      "pract": 1837,
      "hugged": 1838,
      "singing": 1839,
      "aw": 1840,
      "rocket": 1841,
      "table": 1842,
      "po": 1843,
      "silent": 1844,
      "paper": 1845,
      "freed": 1846,
      "##ors": 1847,
      "answer": 1848,
      "aliens": 1849,
      "##less": 1850,
      "declared": 1851,
      "coming": 1852,
      "##iz": 1853,
      "flickered": 1854,
      "haun": 1855,
      "trad": 1856,
      "##ire": 1857,
      "acc": 1858,
      "##ake": 1859,
      "stuck": 1860,
      "##ject": 1861,
      "crown": 1862,
      "ur": 1863,
      "guide": 1864,
      "spaceship": 1865,
      "library": 1866,
      "##ibil": 1867,
      "winter": 1868,
      "##uff": 1869,
      "silver": 1870,
      "tast": 1871,
      "esc": 1872,
      "van": 1873,
      "happened": 1874,
      "disapp": 1875,
      "reminding": 1876,
      "burst": 1877,
      "discover": 1878,
      "arms": 1879,
      "echoing": 1880,
      "captain": 1881,
      "##acks": 1882,
      "##anches": 1883,
      "branches": 1884,
      "worlds": 1885,
      "mission": 1886,
      "##ising": 1887,
      "int": 1888,
      "cheer": 1889,
      "pret": 1890,
      "sailed": 1891,
      "##elves": 1892,
      "hiding": 1893,
      "##cer": 1894,
      "saying": 1895,
      "coll": 1896,
      "hesitated": 1897,
      "coins": 1898,
      "powerful": 1899,
      "lan": 1900,
      "protect": 1901,
      "fail": 1902,
      "drawn": 1903,
      "##mer": 1904,
      "tradit": 1905,
      "pressed": 1906,
      "surf": 1907,
      "celebrated": 1908,
      "lantern": 1909,
      "sou": 1910,
      "class": 1911,
      "smell": 1912,
      "##aged": 1913,
      "soc": 1914,
      "rel": 1915,
      "hit": 1916,
      "hide": 1917,
      "however": 1918,
      "anyone": 1919,
      "neigh": 1920,
      "##ured": 1921,
      "clu": 1922,
      "seas": 1923,
      "##ature": 1924,
      "anger": 1925,
      "##ory": 1926,
      "growing": 1927,
      "##ili": 1928,
      "hum": 1929,
      "##ape": 1930,
      "does": 1931,
      "bag": 1932,
      "talking": 1933,
      "books": 1934,
      "del": 1935,
      "fierce": 1936,
      "shape": 1937,
      "honesty": 1938,
      "##icked": 1939,
      "pour": 1940,
      "offered": 1941,
      "worry": 1942,
      "whisper": 1943,
      "distant": 1944,
      "eagerly": 1945,
      "sail": 1946,
      "search": 1947,
      "moonlight": 1948,
      "dinosaurs": 1949,
      "enc": 1950,
      "shy": 1951,
      "begin": 1952,
      "ones": 1953,
      "##venge": 1954,
      "revenge": 1955,
      "carried": 1956,
      "happily": 1957,
      "taken": 1958,
      "##ises": 1959,
      "##enge": 1960,
      "##sure": 1961,
      "##selves": 1962,
      "##arm": 1963,
      "challenge": 1964,
      "beyond": 1965,
      "##uly": 1966,
      "##ied": 1967,
      "##uring": 1968,
      "ice": 1969,
      "fought": 1970,
      "hills": 1971,
      "crept": 1972,
      "teacher": 1973,
      "prince": 1974,
      "shapes": 1975,
      "moving": 1976,
      "rivers": 1977,
      "wonderful": 1978,
      "cent": 1979,
      "nature": 1980,
      "though": 1981,
      "traveled": 1982,
      "pet": 1983,
      "lies": 1984,
      "mouse": 1985,
      "fing": 1986,
      "paused": 1987,
      "tremb": 1988,
      "##amp": 1989,
      "sorrow": 1990,
      "truly": 1991,
      "dug": 1992,
      "building": 1993,
      "waited": 1994,
      "few": 1995,
      "break": 1996,
      "greatest": 1997,
      "imagination": 1998,
      "afternoon": 1999,
      "feelings": 2000,
      "word": 2001,
      "center": 2002,
      "remembering": 2003,
      "pound": 2004,
      "unsure": 2005,
      "voices": 2006,
      "ang": 2007,
      "hello": 2008,
      "univer": 2009,
      "buried": 2010,
      "become": 2011,
      "twisted": 2012,
      "rest": 2013,
      "universe": 2014,
      "guiding": 2015,
      "walking": 2016,
      "lifted": 2017,
      "vanished": 2018,
      "leading": 2019,
      "lock": 2020,
      "slipped": 2021,
      "##ushing": 2022,
      "large": 2023,
      "##ages": 2024,
      "fog": 2025,
      "abs": 2026,
      "plans": 2027,
      "clapped": 2028,
      "stream": 2029,
      "twist": 2030,
      "hopes": 2031,
      "haunted": 2032,
      "won": 2033,
      "simple": 2034,
      "##cess": 2035,
      "cookies": 2036,
      "ph": 2037,
      "monster": 2038,
      "vast": 2039,
      "wow": 2040,
      "believing": 2041,
      "##lse": 2042,
      "welcome": 2043,
      "winds": 2044,
      "tun": 2045,
      "mel": 2046,
      "traveler": 2047,
      "bringing": 2048,
      "packed": 2049,
      "pear": 2050,
      "which": 2051,
      "flowed": 2052,
      "compass": 2053,
      "freedom": 2054,
      "supp": 2055,
      "challeng": 2056,
      "stick": 2057,
      "balloon": 2058,
      "saved": 2059,
      "eas": 2060,
      "paths": 2061,
      "hu": 2062,
      "couldn": 2063,
      "street": 2064,
      "##ive": 2065,
      "cur": 2066,
      "leg": 2067,
      "##ont": 2068,
      "sum": 2069,
      "escape": 2070,
      "butt": 2071,
      "cake": 2072,
      "pan": 2073,
      "heroes": 2074,
      "standing": 2075,
      "foc": 2076,
      "absence": 2077,
      "##ump": 2078,
      "ended": 2079,
      "##ex": 2080,
      "swirled": 2081,
      "surface": 2082,
      "pee": 2083,
      "using": 2084,
      "fluff": 2085,
      "welcomed": 2086,
      "hun": 2087,
      "celebration": 2088,
      "##tory": 2089,
      "##ience": 2090,
      "##aring": 2091,
      "snowman": 2092,
      "vibr": 2093,
      "tower": 2094,
      "sought": 2095,
      "bigger": 2096,
      "wea": 2097,
      "themselves": 2098,
      "line": 2099,
      "calling": 2100,
      "##ossed": 2101,
      "##gest": 2102,
      "puzz": 2103,
      "eye": 2104,
      "trou": 2105,
      "crossed": 2106,
      "careful": 2107,
      "blanket": 2108,
      "dawn": 2109,
      "machine": 2110,
      "done": 2111,
      "##ibility": 2112,
      "sway": 2113,
      "##ru": 2114,
      "##ledge": 2115,
      "fingers": 2116,
      "roared": 2117,
      "knowledge": 2118,
      "cruel": 2119,
      "rise": 2120,
      "joyful": 2121,
      "ways": 2122,
      "spring": 2123,
      "chaos": 2124,
      "unco": 2125,
      "alm": 2126,
      "almost": 2127,
      "whispering": 2128,
      "wishing": 2129,
      "hall": 2130,
      "bar": 2131,
      "dirt": 2132,
      "vibrant": 2133,
      "robots": 2134,
      "brings": 2135,
      "##exp": 2136,
      "giving": 2137,
      "bench": 2138,
      "front": 2139,
      "wash": 2140,
      "##ops": 2141,
      "biggest": 2142,
      "unexp": 2143,
      "celebrate": 2144,
      "warned": 2145,
      "unexpected": 2146,
      "fur": 2147,
      "plea": 2148,
      "belonged": 2149,
      "snacks": 2150,
      "gri": 2151,
      "##able": 2152,
      "doing": 2153,
      "glass": 2154,
      "ig": 2155,
      "pri": 2156,
      "embrace": 2157,
      "ob": 2158,
      "pages": 2159,
      "##ual": 2160,
      "##vas": 2161,
      "canvas": 2162,
      "respons": 2163,
      "added": 2164,
      "determination": 2165,
      "grant": 2166,
      "contro": 2167,
      "gathering": 2168,
      "pounding": 2169,
      "##ier": 2170,
      "butterflies": 2171,
      "##ounc": 2172,
      "wid": 2173,
      "looks": 2174,
      "##zy": 2175,
      "##yard": 2176,
      "pupp": 2177,
      "ord": 2178,
      "flut": 2179,
      "crashed": 2180,
      "towards": 2181,
      "staring": 2182,
      "speak": 2183,
      "ign": 2184,
      "##red": 2185,
      "spirits": 2186,
      "prepared": 2187,
      "fields": 2188,
      "howled": 2189,
      "feast": 2190,
      "ap": 2191,
      "pearl": 2192,
      "worth": 2193,
      "super": 2194,
      "scary": 2195,
      "pictures": 2196,
      "loudly": 2197,
      "sank": 2198,
      "makes": 2199,
      "##night": 2200,
      "angry": 2201,
      "##ty": 2202,
      "##ivity": 2203,
      "poured": 2204,
      "diamond": 2205,
      "##ps": 2206,
      "spun": 2207,
      "vines": 2208,
      "fluffy": 2209,
      "challenges": 2210,
      "##ian": 2211,
      "betrayal": 2212,
      "##set": 2213,
      "bad": 2214,
      "emerg": 2215,
      "##ground": 2216,
      "sight": 2217,
      "else": 2218,
      "##ored": 2219,
      "creativity": 2220,
      "self": 2221,
      "faster": 2222,
      "late": 2223,
      "##owed": 2224,
      "##bo": 2225,
      "##iety": 2226,
      "choo": 2227,
      "ride": 2228,
      "having": 2229,
      "huge": 2230,
      "fla": 2231,
      "thing": 2232,
      "remained": 2233,
      "bi": 2234,
      "clean": 2235,
      "ser": 2236,
      "bran": 2237,
      "awe": 2238,
      "stayed": 2239,
      "tricks": 2240,
      "##esh": 2241,
      "branch": 2242,
      "presence": 2243,
      "##ming": 2244,
      "chuck": 2245,
      "##owned": 2246,
      "brush": 2247,
      "##ner": 2248,
      "creaked": 2249,
      "walk": 2250,
      "wrapped": 2251,
      "sl": 2252,
      "society": 2253,
      "loomed": 2254,
      "wear": 2255,
      "##ball": 2256,
      "summer": 2257,
      "ask": 2258,
      "oak": 2259,
      "learning": 2260,
      "##ul": 2261,
      "##erm": 2262,
      "drawing": 2263,
      "tor": 2264,
      "gazed": 2265,
      "##ining": 2266,
      "##oming": 2267,
      "shells": 2268,
      "pointing": 2269,
      "missing": 2270,
      "##enc": 2271,
      "fresh": 2272,
      "swim": 2273,
      "swirling": 2274,
      "choices": 2275,
      "picture": 2276,
      "pride": 2277,
      "hair": 2278,
      "tradition": 2279,
      "frowned": 2280,
      "drew": 2281,
      "hoped": 2282,
      "##ths": 2283,
      "clearing": 2284,
      "saf": 2285,
      "pretend": 2286,
      "orange": 2287,
      "hor": 2288,
      "formed": 2289,
      "shaking": 2290,
      "##ord": 2291,
      "neighbor": 2292,
      "circle": 2293,
      "tail": 2294,
      "liked": 2295,
      "floating": 2296,
      "heal": 2297,
      "ruins": 2298,
      "chase": 2299,
      "ind": 2300,
      "##tion": 2301,
      "backyard": 2302,
      "planted": 2303,
      "turning": 2304,
      "casting": 2305,
      "gen": 2306,
      "pot": 2307,
      "grinned": 2308,
      "bed": 2309,
      "pulling": 2310,
      "beast": 2311,
      "comm": 2312,
      "apart": 2313,
      "snowy": 2314,
      "clot": 2315,
      "hopped": 2316,
      "longed": 2317,
      "reaching": 2318,
      "solve": 2319,
      "fort": 2320,
      "##air": 2321,
      "ba": 2322,
      "chose": 2323,
      "##ches": 2324,
      "greed": 2325,
      "during": 2326,
      "floor": 2327,
      "spell": 2328,
      "sent": 2329,
      "ring": 2330,
      "bushes": 2331,
      "coun": 2332,
      "fading": 2333,
      "##ening": 2334,
      "superhero": 2335,
      "clues": 2336,
      "peeked": 2337,
      "emerged": 2338,
      "panic": 2339,
      "##lph": 2340,
      "answers": 2341,
      "##mor": 2342,
      "choose": 2343,
      "iron": 2344,
      "##oot": 2345,
      "asking": 2346,
      "stret": 2347,
      "poss": 2348,
      "diamonds": 2349,
      "twirled": 2350,
      "chir": 2351,
      "connected": 2352,
      "cor": 2353,
      "control": 2354,
      "chased": 2355,
      "symbols": 2356,
      "puppy": 2357,
      "following": 2358,
      "##top": 2359,
      "bike": 2360,
      "##iff": 2361,
      "visited": 2362,
      "thief": 2363,
      "whole": 2364,
      "eat": 2365,
      "lose": 2366,
      "mysterious": 2367,
      "enjoyed": 2368,
      "roots": 2369,
      "shown": 2370,
      "unk": 2371,
      "##rot": 2372,
      "son": 2373,
      "inviting": 2374,
      "winning": 2375,
      "##aps": 2376,
      "ten": 2377,
      "##ging": 2378,
      "weak": 2379,
      "splashed": 2380,
      "excitedly": 2381,
      "awa": 2382,
      "sure": 2383,
      "imagining": 2384,
      "button": 2385,
      "artist": 2386,
      "ant": 2387,
      "creep": 2388,
      "flicker": 2389,
      "val": 2390,
      "cher": 2391,
      "seeing": 2392,
      "lessons": 2393,
      "unkn": 2394,
      "chuckled": 2395,
      "intri": 2396,
      "##unch": 2397,
      "zoom": 2398,
      "louder": 2399,
      "##inked": 2400,
      "mur": 2401,
      "##attered": 2402,
      "finish": 2403,
      "ve": 2404,
      "meeting": 2405,
      "##hood": 2406,
      "drawings": 2407,
      "practiced": 2408,
      "ling": 2409,
      "beginning": 2410,
      "unknown": 2411,
      "purp": 2412,
      "##hen": 2413,
      "drifted": 2414,
      "cozy": 2415,
      "hole": 2416,
      "##ecting": 2417,
      "##iches": 2418,
      "market": 2419,
      "difference": 2420,
      "view": 2421,
      "final": 2422,
      "nec": 2423,
      "hunt": 2424,
      "dig": 2425,
      "trembling": 2426,
      "purpose": 2427,
      "buz": 2428,
      "white": 2429,
      "push": 2430,
      "pink": 2431,
      "shout": 2432,
      "trouble": 2433,
      "spin": 2434,
      "dad": 2435,
      "three": 2436,
      "teach": 2437,
      "##ying": 2438,
      "ent": 2439,
      "##chen": 2440,
      "##found": 2441,
      "kitchen": 2442,
      "bottle": 2443,
      "fruits": 2444,
      "desp": 2445,
      "mixed": 2446,
      "##eat": 2447,
      "shop": 2448,
      "itself": 2449,
      "intrigued": 2450,
      "independ": 2451,
      "recall": 2452,
      "##akes": 2453,
      "##de": 2454,
      "fairies": 2455,
      "sibling": 2456,
      "failure": 2457,
      "##hy": 2458,
      "tools": 2459,
      "neck": 2460,
      "yourself": 2461,
      "yard": 2462,
      "focused": 2463,
      "skill": 2464,
      "wanting": 2465,
      "##book": 2466,
      "storms": 2467,
      "turns": 2468,
      "##ides": 2469,
      "enjoying": 2470,
      "tug": 2471,
      "coin": 2472,
      "sunset": 2473,
      "##omes": 2474,
      "crab": 2475,
      "newfound": 2476,
      "bask": 2477,
      "week": 2478,
      "nights": 2479,
      "falling": 2480,
      "listening": 2481,
      "##ughter": 2482,
      "lovely": 2483,
      "##elt": 2484,
      "beat": 2485,
      "leaf": 2486,
      "treat": 2487,
      "clothes": 2488,
      "##haps": 2489,
      "perhaps": 2490,
      "roar": 2491,
      "##eadow": 2492,
      "meadow": 2493,
      "train": 2494,
      "pass": 2495,
      "sleep": 2496,
      "test": 2497,
      "writ": 2498,
      "confid": 2499,
      "reg": 2500,
      "daughter": 2501,
      "fro": 2502,
      "splash": 2503,
      "sword": 2504,
      "##udd": 2505,
      "struck": 2506,
      "washed": 2507,
      "pock": 2508,
      "pile": 2509,
      "please": 2510,
      "longing": 2511,
      "course": 2512,
      "knelt": 2513,
      "octopus": 2514,
      "##ocked": 2515,
      "twinkle": 2516,
      "##ssed": 2517,
      "carrying": 2518,
      "swing": 2519,
      "says": 2520,
      "blinked": 2521,
      "prove": 2522,
      "swimm": 2523,
      "dim": 2524,
      "##bles": 2525,
      "gifts": 2526,
      "vic": 2527,
      "def": 2528,
      "playful": 2529,
      "delight": 2530,
      "page": 2531,
      "coo": 2532,
      "admired": 2533,
      "sharp": 2534,
      "princess": 2535,
      "responsibility": 2536,
      "happening": 2537,
      "foot": 2538,
      "##cking": 2539,
      "project": 2540,
      "planets": 2541,
      "flood": 2542,
      "cost": 2543,
      "reflection": 2544,
      "##que": 2545,
      "##lace": 2546,
      "ri": 2547,
      "##ment": 2548,
      "char": 2549,
      "surprises": 2550,
      "steps": 2551,
      "rival": 2552,
      "pieces": 2553,
      "mystery": 2554,
      "problem": 2555,
      "gray": 2556,
      "battle": 2557,
      "lad": 2558,
      "worries": 2559,
      "stroke": 2560,
      "tomorrow": 2561,
      "##vice": 2562,
      "comet": 2563,
      "shake": 2564,
      "crash": 2565,
      "skies": 2566,
      "##aid": 2567,
      "glanc": 2568,
      "losing": 2569,
      "encouraged": 2570,
      "live": 2571,
      "##dd": 2572,
      "skin": 2573,
      "aloud": 2574,
      "independence": 2575,
      "##nic": 2576,
      "##ale": 2577,
      "##rance": 2578,
      "amid": 2579,
      "##house": 2580,
      "picnic": 2581,
      "min": 2582,
      "##more": 2583,
      "merm": 2584,
      "mermaid": 2585,
      "rang": 2586,
      "swayed": 2587,
      "anymore": 2588,
      "gems": 2589,
      "witch": 2590,
      "harder": 2591,
      "lands": 2592,
      "holds": 2593,
      "smart": 2594,
      "handed": 2595,
      "bloss": 2596,
      "rainy": 2597,
      "flashlight": 2598,
      "chirped": 2599,
      "##ope": 2600,
      "##pted": 2601,
      "lingered": 2602,
      "belonging": 2603,
      "digg": 2604,
      "given": 2605,
      "bush": 2606,
      "shift": 2607,
      "digging": 2608,
      "seeking": 2609,
      "tonight": 2610,
      "guardian": 2611,
      "log": 2612,
      "smelled": 2613,
      "pushing": 2614,
      "chasing": 2615,
      "net": 2616,
      "glimmered": 2617,
      "notes": 2618,
      "leaned": 2619,
      "middle": 2620,
      "object": 2621,
      "basket": 2622,
      "wolf": 2623,
      "facing": 2624,
      "ears": 2625,
      "marked": 2626,
      "dep": 2627,
      "##under": 2628,
      "##ask": 2629,
      "unic": 2630,
      "nice": 2631,
      "bread": 2632,
      "##room": 2633,
      "revealed": 2634,
      "##ipped": 2635,
      "suc": 2636,
      "living": 2637,
      "vent": 2638,
      "repl": 2639,
      "honor": 2640,
      "pocket": 2641,
      "enter": 2642,
      "hopeful": 2643,
      "fighting": 2644,
      "hungry": 2645,
      "ll": 2646,
      "taste": 2647,
      "petals": 2648,
      "uncover": 2649,
      "##ities": 2650,
      "letting": 2651,
      "twinkling": 2652,
      "swimming": 2653,
      "feared": 2654,
      "virt": 2655,
      "rusty": 2656,
      "fallen": 2657,
      "virtual": 2658,
      "choco": 2659,
      "trap": 2660,
      "worn": 2661,
      "##ounced": 2662,
      "cover": 2663,
      "wiz": 2664,
      "chocol": 2665,
      "shel": 2666,
      "fountain": 2667,
      "wizard": 2668,
      "knows": 2669,
      "widened": 2670,
      "lighting": 2671,
      "rode": 2672,
      "inc": 2673,
      "entrance": 2674,
      "reading": 2675,
      "cross": 2676,
      "##board": 2677,
      "horizon": 2678,
      "gener": 2679,
      "shiver": 2680,
      "send": 2681,
      "message": 2682,
      "stage": 2683,
      "crack": 2684,
      "poet": 2685,
      "##ations": 2686,
      "chocolate": 2687,
      "goal": 2688,
      "commun": 2689,
      "dolphin": 2690,
      "shaped": 2691,
      "##ashing": 2692,
      "##ilor": 2693,
      "impr": 2694,
      "hol": 2695,
      "coral": 2696,
      "clo": 2697,
      "questions": 2698,
      "sailor": 2699,
      "##rupted": 2700,
      "failed": 2701,
      "luck": 2702,
      "climbing": 2703,
      "celebrating": 2704,
      "jokes": 2705,
      "alley": 2706,
      "flour": 2707,
      "hug": 2708,
      "accept": 2709,
      "stretched": 2710,
      "snowf": 2711,
      "rum": 2712,
      "soul": 2713,
      "holiday": 2714,
      "cut": 2715,
      "ventured": 2716,
      "sorry": 2717,
      "harm": 2718,
      "eld": 2719,
      "cheerful": 2720,
      "unicorn": 2721,
      "ridd": 2722,
      "cheers": 2723,
      "mud": 2724,
      "riddles": 2725,
      "##oons": 2726,
      "half": 2727,
      "clue": 2728,
      "awaited": 2729,
      "apple": 2730,
      "wander": 2731,
      "snowfla": 2732,
      "guided": 2733,
      "planning": 2734,
      "homes": 2735,
      "echoes": 2736,
      "riches": 2737,
      "answered": 2738,
      "replaced": 2739,
      "bubbling": 2740,
      "means": 2741,
      "orb": 2742,
      "forgetting": 2743,
      "zoomed": 2744,
      "lines": 2745,
      "support": 2746,
      "depths": 2747,
      "form": 2748,
      "easy": 2749,
      "event": 2750,
      "instant": 2751,
      "phot": 2752,
      "base": 2753,
      "cared": 2754,
      "deer": 2755,
      "warning": 2756,
      "darkest": 2757,
      "spar": 2758,
      "scream": 2759,
      "##ky": 2760,
      "thunder": 2761,
      "yel": 2762,
      "stead": 2763,
      "##aw": 2764,
      "##eds": 2765,
      "tick": 2766,
      "leap": 2767,
      "wondering": 2768,
      "shoot": 2769,
      "##iest": 2770,
      "bold": 2771,
      "roo": 2772,
      "shr": 2773,
      "melo": 2774,
      "scr": 2775,
      "regret": 2776,
      "shot": 2777,
      "hurried": 2778,
      "jumping": 2779,
      "charm": 2780,
      "##fort": 2781,
      "miss": 2782,
      "pick": 2783,
      "unl": 2784,
      "cliff": 2785,
      "nest": 2786,
      "##ail": 2787,
      "prize": 2788,
      "discovery": 2789,
      "crystals": 2790,
      "screen": 2791,
      "victory": 2792,
      "flickering": 2793,
      "steal": 2794,
      "necklace": 2795,
      "snowball": 2796,
      "mattered": 2797,
      "har": 2798,
      "player": 2799,
      "uni": 2800,
      "yellow": 2801,
      "relief": 2802,
      "smooth": 2803,
      "contest": 2804,
      "erupted": 2805,
      "##let": 2806,
      "fis": 2807,
      "passing": 2808,
      "sees": 2809,
      "takes": 2810,
      "##ived": 2811,
      "endless": 2812,
      "lady": 2813,
      "sket": 2814,
      "second": 2815,
      "history": 2816,
      "job": 2817,
      "cafe": 2818,
      "villain": 2819,
      "legend": 2820,
      "treats": 2821,
      "present": 2822,
      "roll": 2823,
      "float": 2824,
      "hot": 2825,
      "caring": 2826,
      "towns": 2827,
      "creeping": 2828,
      "knights": 2829,
      "locket": 2830,
      "##ony": 2831,
      "community": 2832,
      "finds": 2833,
      "decor": 2834,
      "comfort": 2835,
      "cheering": 2836,
      "##ax": 2837,
      "firef": 2838,
      "##cle": 2839,
      "spine": 2840,
      "parrot": 2841,
      "gre": 2842,
      "thrived": 2843,
      "road": 2844,
      "grown": 2845,
      "mural": 2846,
      "fit": 2847,
      "explorers": 2848,
      "scent": 2849,
      "threw": 2850,
      "bell": 2851,
      "soaring": 2852,
      "becoming": 2853,
      "odd": 2854,
      "sparked": 2855,
      "drink": 2856,
      "bal": 2857,
      "balloons": 2858,
      "order": 2859,
      "bravely": 2860,
      "dashed": 2861,
      "##ding": 2862,
      "pad": 2863,
      "##ales": 2864,
      "keeper": 2865,
      "minut": 2866,
      "tension": 2867,
      "##ef": 2868,
      "egg": 2869,
      "chair": 2870,
      "cream": 2871,
      "mine": 2872,
      "notebook": 2873,
      "watered": 2874,
      "buzzed": 2875,
      "tossed": 2876,
      "##unk": 2877,
      "needs": 2878,
      "deeply": 2879,
      "fate": 2880,
      "deser": 2881,
      "steep": 2882,
      "inter": 2883,
      "ast": 2884,
      "por": 2885,
      "hey": 2886,
      "##anged": 2887,
      "soar": 2888,
      "raised": 2889,
      "torn": 2890,
      "shifted": 2891,
      "scar": 2892,
      "##tles": 2893,
      "flashed": 2894,
      "porch": 2895,
      "getting": 2896,
      "rich": 2897,
      "stepping": 2898,
      "feathers": 2899,
      "##tering": 2900,
      "fool": 2901,
      "##aked": 2902,
      "buildings": 2903,
      "disappoin": 2904,
      "port": 2905,
      "grandf": 2906,
      "grandfather": 2907,
      "question": 2908,
      "stranger": 2909,
      "overc": 2910,
      "flooded": 2911,
      "keeping": 2912,
      "mistakes": 2913,
      "press": 2914,
      "images": 2915,
      "knocked": 2916,
      "wearing": 2917,
      "##flow": 2918,
      "surge": 2919,
      "unique": 2920,
      "rece": 2921,
      "recalled": 2922,
      "metal": 2923,
      "##ention": 2924,
      "giggle": 2925,
      "growth": 2926,
      "unity": 2927,
      "setting": 2928,
      "woo": 2929,
      "##umn": 2930,
      "pudd": 2931,
      "aut": 2932,
      "##olk": 2933,
      "urged": 2934,
      "giggling": 2935,
      "anywhere": 2936,
      "disappeared": 2937,
      "trip": 2938,
      "trail": 2939,
      "friendships": 2940,
      "scrat": 2941,
      "grace": 2942,
      "such": 2943,
      "squea": 2944,
      "sticks": 2945,
      "soil": 2946,
      "autumn": 2947,
      "students": 2948,
      "thinks": 2949,
      "trusted": 2950,
      "##away": 2951,
      "invent": 2952,
      "##folk": 2953,
      "proudly": 2954,
      "maps": 2955,
      "##iliar": 2956,
      "scales": 2957,
      "tunnel": 2958,
      "smoke": 2959,
      "##ift": 2960,
      "twirl": 2961,
      "shooting": 2962,
      "cons": 2963,
      "lonel": 2964,
      "##ety": 2965,
      "sneak": 2966,
      "leaped": 2967,
      "leads": 2968,
      "townsfolk": 2969,
      "splashing": 2970,
      "pondered": 2971,
      "whatever": 2972,
      "faraway": 2973,
      "stom": 2974,
      "doors": 2975,
      "apples": 2976,
      "rising": 2977,
      "players": 2978,
      "blooming": 2979,
      "wooden": 2980,
      "siblings": 2981,
      "writing": 2982,
      "familiar": 2983,
      "despair": 2984,
      "ins": 2985,
      "tied": 2986,
      "##ilies": 2987,
      "families": 2988,
      "dipped": 2989,
      "clut": 2990,
      "glit": 2991,
      "loneliness": 2992,
      "bark": 2993,
      "square": 2994,
      "eff": 2995,
      "perfor": 2996,
      "planting": 2997,
      "safety": 2998,
      "exch": 2999,
      "throw": 3000,
      "cherish": 3001,
      "practice": 3002,
      "bite": 3003,
      "collect": 3004,
      "snowflakes": 3005,
      "inspir": 3006,
      "wants": 3007,
      "myself": 3008,
      "cup": 3009,
      "mistake": 3010,
      "shelf": 3011,
      "##ustr": 3012,
      "##zation": 3013,
      "skills": 3014,
      "##fall": 3015,
      "seasons": 3016,
      "fli": 3017,
      "firm": 3018,
      "landing": 3019,
      "##ycle": 3020,
      "shocked": 3021,
      "steady": 3022,
      "waving": 3023,
      "##irred": 3024,
      "creation": 3025,
      "##ude": 3026,
      "delic": 3027,
      "frustr": 3028,
      "swept": 3029,
      "emptiness": 3030,
      "betrayed": 3031,
      "guilt": 3032,
      "bak": 3033,
      "parents": 3034,
      "unlock": 3035,
      "swift": 3036,
      "scen": 3037,
      "dove": 3038,
      "##ient": 3039,
      "souls": 3040,
      "jungle": 3041,
      "portal": 3042,
      "desk": 3043,
      "sigh": 3044,
      "underground": 3045,
      "spinning": 3046,
      "ill": 3047,
      "childhood": 3048,
      "##water": 3049,
      "effort": 3050,
      "pal": 3051,
      "wisely": 3052,
      "rhy": 3053,
      "tend": 3054,
      "doubts": 3055,
      "promising": 3056,
      "hats": 3057,
      "kitten": 3058,
      "united": 3059,
      "dest": 3060,
      "beamed": 3061,
      "irony": 3062,
      "##oring": 3063,
      "amidst": 3064,
      "##ress": 3065,
      "civ": 3066,
      "civili": 3067,
      "##ically": 3068,
      "ren": 3069,
      "##zes": 3070,
      "purple": 3071,
      "coat": 3072,
      "renew": 3073,
      "tough": 3074,
      "trembled": 3075,
      "studied": 3076,
      "##ually": 3077,
      "weeds": 3078,
      "mixing": 3079,
      "circles": 3080,
      "shoes": 3081,
      "ghosts": 3082,
      "##eed": 3083,
      "ticked": 3084,
      "##bble": 3085,
      "unf": 3086,
      "locked": 3087,
      "older": 3088,
      "stat": 3089,
      "machines": 3090,
      "##ready": 3091,
      "already": 3092,
      "club": 3093,
      "written": 3094,
      "lion": 3095,
      "##itted": 3096,
      "##sy": 3097,
      "minutes": 3098,
      "##ct": 3099,
      "logic": 3100,
      "drift": 3101,
      "round": 3102,
      "ate": 3103,
      "picking": 3104,
      "chee": 3105,
      "dar": 3106,
      "##ource": 3107,
      "desire": 3108,
      "joke": 3109,
      "bitter": 3110,
      "urging": 3111,
      "##cast": 3112,
      "scare": 3113,
      "flapped": 3114,
      "ached": 3115,
      "##illed": 3116,
      "dangerous": 3117,
      "traditions": 3118,
      "struggled": 3119,
      "breaking": 3120,
      "received": 3121,
      "thanks": 3122,
      "signs": 3123,
      "##old": 3124,
      "playground": 3125,
      "uncovered": 3126,
      "serious": 3127,
      "sparkle": 3128,
      "embraced": 3129,
      "crying": 3130,
      "##mates": 3131,
      "renewed": 3132,
      "valu": 3133,
      "wandering": 3134,
      "shines": 3135,
      "##ucked": 3136,
      "greet": 3137,
      "spreading": 3138,
      "lur": 3139,
      "##ges": 3140,
      "pretty": 3141,
      "neighbors": 3142,
      "exper": 3143,
      "trunk": 3144,
      "pie": 3145,
      "guarded": 3146,
      "underwater": 3147,
      "bubbles": 3148,
      "invite": 3149,
      "bake": 3150,
      "rac": 3151,
      "##ows": 3152,
      "si": 3153,
      "attention": 3154,
      "confident": 3155,
      "rhythm": 3156,
      "parts": 3157,
      "ripp": 3158,
      "item": 3159,
      "nar": 3160,
      "gal": 3161,
      "joyfully": 3162,
      "shelter": 3163,
      "mid": 3164,
      "lifting": 3165,
      "exchanged": 3166,
      "##isk": 3167,
      "##uts": 3168,
      "##key": 3169,
      "jar": 3170,
      "reflecting": 3171,
      "melody": 3172,
      "puzzle": 3173,
      "check": 3174,
      "curiously": 3175,
      "minds": 3176,
      "hi": 3177,
      "opening": 3178,
      "bubble": 3179,
      "##oll": 3180,
      "timid": 3181,
      "rivalry": 3182,
      "pen": 3183,
      "glimmer": 3184,
      "success": 3185,
      "valuable": 3186,
      "##vest": 3187,
      "ble": 3188,
      "dropped": 3189,
      "puzzled": 3190,
      "raged": 3191,
      "balance": 3192,
      "craw": 3193,
      "civilization": 3194,
      "reality": 3195,
      "##ocking": 3196,
      "##lt": 3197,
      "expected": 3198,
      "dress": 3199,
      "lunch": 3200,
      "money": 3201,
      "happier": 3202,
      "plot": 3203,
      "enem": 3204,
      "ache": 3205,
      "shined": 3206,
      "exciting": 3207,
      "boxes": 3208,
      "galax": 3209,
      "teaching": 3210,
      "ber": 3211,
      "vowed": 3212,
      "beating": 3213,
      "narrow": 3214,
      "granted": 3215,
      "accepted": 3216,
      "##ano": 3217,
      "waters": 3218,
      "astron": 3219,
      "sto": 3220,
      "cracked": 3221,
      "##inary": 3222,
      "roamed": 3223,
      "reb": 3224,
      "bust": 3225,
      "discovering": 3226,
      "pang": 3227,
      "legs": 3228,
      "##itude": 3229,
      "aud": 3230,
      "##ime": 3231,
      "notice": 3232,
      "device": 3233,
      "##aint": 3234,
      "paintings": 3235,
      "##oned": 3236,
      "##ains": 3237,
      "distr": 3238,
      "troll": 3239,
      "dull": 3240,
      "blend": 3241,
      "inspire": 3242,
      "pul": 3243,
      "acorn": 3244,
      "##fish": 3245,
      "grows": 3246,
      "##ters": 3247,
      "wagg": 3248,
      "powers": 3249,
      "weaving": 3250,
      "kites": 3251,
      "froze": 3252,
      "short": 3253,
      "tune": 3254,
      "gardens": 3255,
      "##cious": 3256,
      "##unched": 3257,
      "statue": 3258,
      "whale": 3259,
      "wrapping": 3260,
      "overcome": 3261,
      "black": 3262,
      "changing": 3263,
      "sock": 3264,
      "returning": 3265,
      "chat": 3266,
      "sailing": 3267,
      "lined": 3268,
      "##icking": 3269,
      "flight": 3270,
      "unea": 3271,
      "blossomed": 3272,
      "rules": 3273,
      "announced": 3274,
      "younger": 3275,
      "possible": 3276,
      "reveal": 3277,
      "soccer": 3278,
      "cookie": 3279,
      "aside": 3280,
      "darker": 3281,
      "##tled": 3282,
      "dragons": 3283,
      "further": 3284,
      "wet": 3285,
      "encourag": 3286,
      "unli": 3287,
      "birth": 3288,
      "caves": 3289,
      "gripped": 3290,
      "##bs": 3291,
      "penc": 3292,
      "pencil": 3293,
      "lying": 3294,
      "##ition": 3295,
      "collected": 3296,
      "bonds": 3297,
      "giants": 3298,
      "speed": 3299,
      "trusting": 3300,
      "ban": 3301,
      "forms": 3302,
      "##iant": 3303,
      "struggle": 3304,
      "focus": 3305,
      "member": 3306,
      "birthday": 3307,
      "pretending": 3308,
      "lanterns": 3309,
      "passion": 3310,
      "sparkles": 3311,
      "safely": 3312,
      "backp": 3313,
      "compan": 3314,
      "moves": 3315,
      "body": 3316,
      "sadly": 3317,
      "stomach": 3318,
      "##shine": 3319,
      "chees": 3320,
      "gust": 3321,
      "mou": 3322,
      "nose": 3323,
      "bustling": 3324,
      "padd": 3325,
      "audience": 3326,
      "desc": 3327,
      "tells": 3328,
      "warri": 3329,
      "##ires": 3330,
      "waterfall": 3331,
      "sandw": 3332,
      "vision": 3333,
      "dive": 3334,
      "##step": 3335,
      "racco": 3336,
      "dressed": 3337,
      "forth": 3338,
      "popped": 3339,
      "eagle": 3340,
      "##my": 3341,
      "season": 3342,
      "drop": 3343,
      "bee": 3344,
      "tasted": 3345,
      "##umpy": 3346,
      "rushing": 3347,
      "famous": 3348,
      "talent": 3349,
      "roof": 3350,
      "faint": 3351,
      "scattered": 3352,
      "fireflies": 3353,
      "screamed": 3354,
      "arg": 3355,
      "complet": 3356,
      "stolen": 3357,
      "cab": 3358,
      "ped": 3359,
      "bags": 3360,
      "compet": 3361,
      "men": 3362,
      "shoulders": 3363,
      "brightened": 3364,
      "cabin": 3365,
      "##ws": 3366,
      "patience": 3367,
      "flowing": 3368,
      "rabbits": 3369,
      "##ider": 3370,
      "cheese": 3371,
      "glade": 3372,
      "figures": 3373,
      "meaning": 3374,
      "fu": 3375,
      "gn": 3376,
      "struggling": 3377,
      "ter": 3378,
      "importance": 3379,
      "crumb": 3380,
      "monkey": 3381,
      "dod": 3382,
      "##ized": 3383,
      "firew": 3384,
      "unfold": 3385,
      "rocky": 3386,
      "##ber": 3387,
      "point": 3388,
      "scene": 3389,
      "rustling": 3390,
      "surprising": 3391,
      "##ilted": 3392,
      "early": 3393,
      "stea": 3394,
      "##tom": 3395,
      "generosity": 3396,
      "bottom": 3397,
      "grinning": 3398,
      "sunshine": 3399,
      "fixed": 3400,
      "dimm": 3401,
      "slipping": 3402,
      "unlike": 3403,
      "threat": 3404,
      "sorcer": 3405,
      "disappear": 3406,
      "delicious": 3407,
      "grab": 3408,
      "##lls": 3409,
      "visions": 3410,
      "elder": 3411,
      "wasn": 3412,
      "frag": 3413,
      "taller": 3414,
      "##nings": 3415,
      "confusion": 3416,
      "jelly": 3417,
      "gazing": 3418,
      "##orm": 3419,
      "baked": 3420,
      "impress": 3421,
      "scratched": 3422,
      "shows": 3423,
      "winding": 3424,
      "dir": 3425,
      "resili": 3426,
      "tap": 3427,
      "dinner": 3428,
      "respect": 3429,
      "kicked": 3430,
      "owner": 3431,
      "walks": 3432,
      "struggles": 3433,
      "keys": 3434,
      "sled": 3435,
      "##chie": 3436,
      "gate": 3437,
      "tripped": 3438,
      "flames": 3439,
      "duck": 3440,
      "adventur": 3441,
      "urge": 3442,
      "problems": 3443,
      "blocking": 3444,
      "price": 3445,
      "mouth": 3446,
      "raccoon": 3447,
      "silently": 3448,
      "##angled": 3449,
      "ele": 3450,
      "towers": 3451,
      "crawled": 3452,
      "tallest": 3453,
      "swung": 3454,
      "lie": 3455,
      "admitted": 3456,
      "rough": 3457,
      "mask": 3458,
      "backpack": 3459,
      "harmony": 3460,
      "shock": 3461,
      "incred": 3462,
      "cloak": 3463,
      "sprou": 3464,
      "glimmering": 3465,
      "stormy": 3466,
      "brew": 3467,
      "outs": 3468,
      "whenever": 3469,
      "frogs": 3470,
      "string": 3471,
      "direct": 3472,
      "rew": 3473,
      "det": 3474,
      "hurry": 3475,
      "##eld": 3476,
      "torto": 3477,
      "berries": 3478,
      "blink": 3479,
      "tricky": 3480,
      "##zen": 3481,
      "tortoise": 3482,
      "laughs": 3483,
      "precious": 3484,
      "pulsed": 3485,
      "rex": 3486,
      "cap": 3487,
      "brushed": 3488,
      "caut": 3489,
      "kis": 3490,
      "grandma": 3491,
      "jewel": 3492,
      "card": 3493,
      "footstep": 3494,
      "##ences": 3495,
      "forming": 3496,
      "##lee": 3497,
      "resilience": 3498,
      "desert": 3499,
      "shrugged": 3500,
      "dared": 3501,
      "snail": 3502,
      "halls": 3503,
      "peered": 3504,
      "frozen": 3505,
      "##ibilities": 3506,
      "meal": 3507,
      "asks": 3508,
      "skate": 3509,
      "beings": 3510,
      "scarf": 3511,
      "eng": 3512,
      "##if": 3513,
      "chick": 3514,
      "whist": 3515,
      "footsteps": 3516,
      "##lier": 3517,
      "blooms": 3518,
      "ruled": 3519,
      "thr": 3520,
      "thrilled": 3521,
      "greeted": 3522,
      "##esc": 3523,
      "resting": 3524,
      "blow": 3525,
      "hang": 3526,
      "reader": 3527,
      "tel": 3528,
      "lot": 3529,
      "##phant": 3530,
      "##ship": 3531,
      "bounc": 3532,
      "rainbows": 3533,
      "hollow": 3534,
      "sly": 3535,
      "bow": 3536,
      "cou": 3537,
      "fluttered": 3538,
      "ironically": 3539,
      "tear": 3540,
      "chosen": 3541,
      "frown": 3542,
      "earlier": 3543,
      "##ipe": 3544,
      "stirred": 3545,
      "lively": 3546,
      "tem": 3547,
      "buttons": 3548,
      "swelled": 3549,
      "pump": 3550,
      "warmed": 3551,
      "seashe": 3552,
      "##flowers": 3553,
      "uneasy": 3554,
      "frustrated": 3555,
      "telescope": 3556,
      "inspiration": 3557,
      "tucked": 3558,
      "charac": 3559,
      "camp": 3560,
      "grumpy": 3561,
      "heads": 3562,
      "acceptance": 3563,
      "lightning": 3564,
      "joked": 3565,
      "realm": 3566,
      "sending": 3567,
      "task": 3568,
      "reflected": 3569,
      "ordinary": 3570,
      "##vers": 3571,
      "##eople": 3572,
      "squeaked": 3573,
      "##umin": 3574,
      "##speople": 3575,
      "townspeople": 3576,
      "reef": 3577,
      "##eless": 3578,
      "stole": 3579,
      "cleared": 3580,
      "##ners": 3581,
      "arri": 3582,
      "spea": 3583,
      "riverb": 3584,
      "windows": 3585,
      "brightest": 3586,
      "decide": 3587,
      "conqu": 3588,
      "shimmer": 3589,
      "possibilities": 3590,
      "unse": 3591,
      "gaze": 3592,
      "match": 3593,
      "unseen": 3594,
      "##ase": 3595,
      "disappointed": 3596,
      "confidence": 3597,
      "burden": 3598,
      "##ical": 3599,
      "forests": 3600,
      "grat": 3601,
      "express": 3602,
      "actions": 3603,
      "gratitude": 3604,
      "fre": 3605,
      "grea": 3606,
      "chicken": 3607,
      "midnight": 3608,
      "##pl": 3609,
      "neighborhood": 3610,
      "ants": 3611,
      "responsible": 3612,
      "baker": 3613,
      "pizz": 3614,
      "##ooped": 3615,
      "greater": 3616,
      "starry": 3617,
      "harvest": 3618,
      "action": 3619,
      "lamp": 3620,
      "##icing": 3621,
      "fright": 3622,
      "##ping": 3623,
      "stealing": 3624,
      "curse": 3625,
      "bud": 3626,
      "guess": 3627,
      "rare": 3628,
      "ringing": 3629,
      "##ffe": 3630,
      "cheeks": 3631,
      "startled": 3632,
      "barked": 3633,
      "ev": 3634,
      "terri": 3635,
      "cleaning": 3636,
      "##int": 3637,
      "##ians": 3638,
      "bubbled": 3639,
      "sprink": 3640,
      "spilled": 3641,
      "giggles": 3642,
      "jud": 3643,
      "##weed": 3644,
      "drum": 3645,
      "rolling": 3646,
      "houses": 3647,
      "paddled": 3648,
      "smaller": 3649,
      "seaweed": 3650,
      "size": 3651,
      "sandcastle": 3652,
      "pretended": 3653,
      "peaceful": 3654,
      "rad": 3655,
      "##bbled": 3656,
      "rebu": 3657,
      "twirling": 3658,
      "fireworks": 3659,
      "opens": 3660,
      "pizza": 3661,
      "pil": 3662,
      "warrior": 3663,
      "beep": 3664,
      "pumpk": 3665,
      "tangled": 3666,
      "solved": 3667,
      "sold": 3668,
      "continue": 3669,
      "mush": 3670,
      "enemy": 3671,
      "block": 3672,
      "##ech": 3673,
      "hardship": 3674,
      "dreamer": 3675,
      "fishing": 3676,
      "um": 3677,
      "riverbank": 3678,
      "imagine": 3679,
      "perched": 3680,
      "peak": 3681,
      "boys": 3682,
      "board": 3683,
      "elephant": 3684,
      "guards": 3685,
      "count": 3686,
      "galaxy": 3687,
      "claimed": 3688,
      "mushroom": 3689,
      "glasses": 3690,
      "source": 3691,
      "unexpectedly": 3692,
      "reply": 3693,
      "melted": 3694,
      "royal": 3695,
      "glor": 3696,
      "hers": 3697,
      "tricked": 3698,
      "months": 3699,
      "emb": 3700,
      "buy": 3701,
      "legends": 3702,
      "darkened": 3703,
      "foolish": 3704,
      "animal": 3705,
      "pay": 3706,
      "glist": 3707,
      "##ealous": 3708,
      "void": 3709,
      "jealous": 3710,
      "girls": 3711,
      "wrap": 3712,
      "ancest": 3713,
      "pool": 3714,
      "tip": 3715,
      "shadowy": 3716,
      "helps": 3717,
      "classroom": 3718,
      "##ushes": 3719,
      "blur": 3720,
      "supplies": 3721,
      "castles": 3722,
      "pure": 3723,
      "##airs": 3724,
      "larger": 3725,
      "sink": 3726,
      "advice": 3727,
      "despite": 3728,
      "corners": 3729,
      "stands": 3730,
      "pra": 3731,
      "sprite": 3732,
      "wildly": 3733,
      "##ring": 3734,
      "rustled": 3735,
      "piano": 3736,
      "shouting": 3737,
      "shovel": 3738,
      "unaware": 3739,
      "none": 3740,
      "envel": 3741,
      "carrot": 3742,
      "clea": 3743,
      "glanced": 3744,
      "heartb": 3745,
      "##eated": 3746,
      "ancestors": 3747,
      "tag": 3748,
      "cleaned": 3749,
      "candle": 3750,
      "##ently": 3751,
      "emot": 3752,
      "gloom": 3753,
      "bic": 3754,
      "kne": 3755,
      "ruin": 3756,
      "promises": 3757,
      "##owing": 3758,
      "##no": 3759,
      "carved": 3760,
      "argued": 3761,
      "shade": 3762,
      "stra": 3763,
      "rustle": 3764,
      "freely": 3765,
      "##ott": 3766,
      "treehouse": 3767,
      "swall": 3768,
      "weal": 3769,
      "wealth": 3770,
      "loc": 3771,
      "shades": 3772,
      "cott": 3773,
      "expect": 3774,
      "hummed": 3775,
      "bun": 3776,
      "sick": 3777,
      "value": 3778,
      "embracing": 3779,
      "##rupt": 3780,
      "add": 3781,
      "frost": 3782,
      "flourished": 3783,
      "##osed": 3784,
      "bug": 3785,
      "somewhere": 3786,
      "##ision": 3787,
      "collecting": 3788,
      "streams": 3789,
      "##itar": 3790,
      "guitar": 3791,
      "confront": 3792,
      "lighthouse": 3793,
      "##osaurus": 3794,
      "force": 3795,
      "fact": 3796,
      "shattered": 3797,
      "soup": 3798,
      "single": 3799,
      "joining": 3800,
      "classmates": 3801,
      "proving": 3802,
      "##line": 3803,
      "cupc": 3804,
      "dimmed": 3805,
      "whistle": 3806,
      "bouncing": 3807,
      "eating": 3808,
      "##inted": 3809,
      "painter": 3810,
      "##zzy": 3811,
      "astronaut": 3812,
      "dry": 3813,
      "##oted": 3814,
      "lucky": 3815,
      "poem": 3816,
      "fence": 3817,
      "weather": 3818,
      "cautious": 3819,
      "company": 3820,
      "pill": 3821,
      "goes": 3822,
      "fisher": 3823,
      "mighty": 3824,
      "members": 3825,
      "puzzles": 3826,
      "belief": 3827,
      "swings": 3828,
      "incl": 3829,
      "pebble": 3830,
      "anx": 3831,
      "swell": 3832,
      "##ially": 3833,
      "trash": 3834,
      "healing": 3835,
      "bicycle": 3836,
      "master": 3837,
      "##using": 3838,
      "misty": 3839,
      "comb": 3840,
      "breathe": 3841,
      "oneself": 3842,
      "craft": 3843,
      "appear": 3844,
      "snowballs": 3845,
      "messy": 3846,
      "seems": 3847,
      "calmed": 3848,
      "ju": 3849,
      "chilly": 3850,
      "fragile": 3851,
      "smallest": 3852,
      "dangers": 3853,
      "##ummy": 3854,
      "sniff": 3855,
      "potion": 3856,
      "isn": 3857,
      "invisibility": 3858,
      "##mos": 3859,
      "##ced": 3860,
      "wherever": 3861,
      "inno": 3862,
      "esp": 3863,
      "headed": 3864,
      "connecting": 3865,
      "distract": 3866,
      "eventually": 3867,
      "especially": 3868,
      "lab": 3869,
      "incredible": 3870,
      "cooperation": 3871,
      "calmly": 3872,
      "term": 3873,
      "lush": 3874,
      "surv": 3875,
      "sensed": 3876,
      "##ric": 3877,
      "umbr": 3878,
      "umbrell": 3879,
      "sne": 3880,
      "clutching": 3881,
      "shaky": 3882,
      "buzzing": 3883,
      "counted": 3884,
      "##its": 3885,
      "journeys": 3886,
      "storyt": 3887,
      "cars": 3888,
      "tool": 3889,
      "flutter": 3890,
      "timidly": 3891,
      "outsm": 3892,
      "moss": 3893,
      "spoon": 3894,
      "human": 3895,
      "tapest": 3896,
      "ships": 3897,
      "##olog": 3898,
      "begins": 3899,
      "##ison": 3900,
      "flipped": 3901,
      "nowhere": 3902,
      "puddle": 3903,
      "glory": 3904,
      "starts": 3905,
      "nur": 3906,
      "admire": 3907,
      "loves": 3908,
      "disc": 3909,
      "##gar": 3910,
      "wheels": 3911,
      "approach": 3912,
      "cherished": 3913,
      "growled": 3914,
      "illumin": 3915,
      "abo": 3916,
      "aboard": 3917,
      "shield": 3918,
      "swiftly": 3919,
      "adding": 3920,
      "##ffee": 3921,
      "gracefully": 3922,
      "doll": 3923,
      "coffee": 3924,
      "stro": 3925,
      "puddles": 3926,
      "pale": 3927,
      "slip": 3928,
      "saving": 3929,
      "catching": 3930,
      "stri": 3931,
      "slide": 3932,
      "yours": 3933,
      "asleep": 3934,
      "guardians": 3935,
      "evil": 3936,
      "wound": 3937,
      "##sters": 3938,
      "cham": 3939,
      "sandy": 3940,
      "##rops": 3941,
      "hardly": 3942,
      "sche": 3943,
      "matters": 3944,
      "scents": 3945,
      "ignoring": 3946,
      "sensing": 3947,
      "braver": 3948,
      "visible": 3949,
      "blossom": 3950,
      "phone": 3951,
      "reward": 3952,
      "cos": 3953,
      "wagged": 3954,
      "settled": 3955,
      "candles": 3956,
      "court": 3957,
      "##oses": 3958,
      "##ym": 3959,
      "ghostly": 3960,
      "strongest": 3961,
      "remain": 3962,
      "flute": 3963,
      "track": 3964,
      "palace": 3965,
      "##ceed": 3966,
      "tasty": 3967,
      "dolphins": 3968,
      "swooped": 3969,
      "baking": 3970,
      "anti": 3971,
      "transform": 3972,
      "##time": 3973,
      "damp": 3974,
      "mer": 3975,
      "claim": 3976,
      "##bbing": 3977,
      "battles": 3978,
      "glided": 3979,
      "troubles": 3980,
      "succeed": 3981,
      "##oop": 3982,
      "breathing": 3983,
      "conquer": 3984,
      "teased": 3985,
      "wake": 3986,
      "aband": 3987,
      "stairs": 3988,
      "patch": 3989,
      "bees": 3990,
      "glittering": 3991,
      "lung": 3992,
      "smells": 3993,
      "flame": 3994,
      "connections": 3995,
      "bounced": 3996,
      "anxious": 3997,
      "afar": 3998,
      "tapestry": 3999,
      "##rib": 4000,
      "##ign": 4001,
      "plotted": 4002,
      "##ivated": 4003,
      "defeated": 4004,
      "items": 4005,
      "##aking": 4006,
      "##ident": 4007,
      "relea": 4008,
      "raind": 4009,
      "perfectly": 4010,
      "decides": 4011,
      "##con": 4012,
      "begun": 4013,
      "coach": 4014,
      "remembers": 4015,
      "click": 4016,
      "sits": 4017,
      "decorated": 4018
    }
  }
}